{
  "version": "1.0",
  "truncation": null,
  "padding": null,
  "added_tokens": [
    {
      "id": 0,
      "content": "<unk>",
      "single_word": false,
      "lstrip": false,
      "rstrip": false,
      "normalized": false,
      "special": true
    },
    {
      "id": 1,
      "content": "<startoftext>",
      "single_word": false,
      "lstrip": false,
      "rstrip": false,
      "normalized": false,
      "special": true
    },
    {
      "id": 2,
      "content": "<endoftext>",
      "single_word": false,
      "lstrip": false,
      "rstrip": false,
      "normalized": false,
      "special": true
    },
    {
      "id": 3,
      "content": "<sep>",
      "single_word": false,
      "lstrip": false,
      "rstrip": false,
      "normalized": false,
      "special": true
    },
    {
      "id": 4,
      "content": "<pad>",
      "single_word": false,
      "lstrip": false,
      "rstrip": false,
      "normalized": false,
      "special": true
    },
    {
      "id": 5,
      "content": "<cls>",
      "single_word": false,
      "lstrip": false,
      "rstrip": false,
      "normalized": false,
      "special": true
    }
  ],
  "normalizer": null,
  "pre_tokenizer": null,
  "post_processor": null,
  "decoder": null,
  "model": {
    "type": "BPE",
    "dropout": null,
    "unk_token": null,
    "continuing_subword_prefix": null,
    "end_of_word_suffix": null,
    "fuse_unk": false,
    "byte_fallback": false,
    "ignore_merges": false,
    "vocab": {
      "<unk>": 0,
      "<startoftext>": 1,
      "<endoftext>": 2,
      "<sep>": 3,
      "<pad>": 4,
      "<cls>": 5,
      "\n": 6,
      " ": 7,
      "!": 8,
      "\"": 9,
      "#": 10,
      "$": 11,
      "%": 12,
      "&": 13,
      "'": 14,
      "(": 15,
      ")": 16,
      "*": 17,
      "+": 18,
      ",": 19,
      "-": 20,
      ".": 21,
      "/": 22,
      "0": 23,
      "1": 24,
      "2": 25,
      "3": 26,
      "4": 27,
      "5": 28,
      "6": 29,
      "7": 30,
      "8": 31,
      "9": 32,
      ":": 33,
      ";": 34,
      "<": 35,
      "=": 36,
      ">": 37,
      "?": 38,
      "@": 39,
      "A": 40,
      "B": 41,
      "C": 42,
      "D": 43,
      "E": 44,
      "F": 45,
      "G": 46,
      "H": 47,
      "I": 48,
      "J": 49,
      "K": 50,
      "L": 51,
      "M": 52,
      "N": 53,
      "O": 54,
      "P": 55,
      "Q": 56,
      "R": 57,
      "S": 58,
      "T": 59,
      "U": 60,
      "V": 61,
      "W": 62,
      "X": 63,
      "Y": 64,
      "Z": 65,
      "[": 66,
      "\\": 67,
      "]": 68,
      "_": 69,
      "`": 70,
      "a": 71,
      "b": 72,
      "c": 73,
      "d": 74,
      "e": 75,
      "f": 76,
      "g": 77,
      "h": 78,
      "i": 79,
      "j": 80,
      "k": 81,
      "l": 82,
      "m": 83,
      "n": 84,
      "o": 85,
      "p": 86,
      "q": 87,
      "r": 88,
      "s": 89,
      "t": 90,
      "u": 91,
      "v": 92,
      "w": 93,
      "x": 94,
      "y": 95,
      "z": 96,
      "{": 97,
      "}": 98,
      "~": 99,
      "¢": 100,
      "£": 101,
      "¥": 102,
      "§": 103,
      "°": 104,
      "±": 105,
      "²": 106,
      "´": 107,
      "·": 108,
      "Á": 109,
      "Å": 110,
      "Æ": 111,
      "É": 112,
      "Í": 113,
      "Î": 114,
      "Ô": 115,
      "Õ": 116,
      "Ö": 117,
      "×": 118,
      "Ú": 119,
      "Ü": 120,
      "ß": 121,
      "à": 122,
      "á": 123,
      "â": 124,
      "ã": 125,
      "ä": 126,
      "å": 127,
      "æ": 128,
      "ç": 129,
      "è": 130,
      "é": 131,
      "ê": 132,
      "ë": 133,
      "ì": 134,
      "í": 135,
      "î": 136,
      "ï": 137,
      "ð": 138,
      "ñ": 139,
      "ò": 140,
      "ó": 141,
      "ô": 142,
      "õ": 143,
      "ö": 144,
      "ø": 145,
      "ù": 146,
      "ú": 147,
      "û": 148,
      "ü": 149,
      "ý": 150,
      "þ": 151,
      "Ā": 152,
      "ā": 153,
      "ă": 154,
      "Ć": 155,
      "ć": 156,
      "Č": 157,
      "č": 158,
      "Đ": 159,
      "đ": 160,
      "Ē": 161,
      "ē": 162,
      "ė": 163,
      "ę": 164,
      "ě": 165,
      "ğ": 166,
      "ī": 167,
      "ĭ": 168,
      "İ": 169,
      "ı": 170,
      "ļ": 171,
      "Ł": 172,
      "ł": 173,
      "ń": 174,
      "ņ": 175,
      "Ō": 176,
      "ō": 177,
      "ŏ": 178,
      "ő": 179,
      "Œ": 180,
      "œ": 181,
      "Ś": 182,
      "ś": 183,
      "Ş": 184,
      "ş": 185,
      "Š": 186,
      "š": 187,
      "ţ": 188,
      "ũ": 189,
      "ū": 190,
      "ź": 191,
      "Ż": 192,
      "ż": 193,
      "Ž": 194,
      "ž": 195,
      "ơ": 196,
      "ư": 197,
      "ƿ": 198,
      "ǎ": 199,
      "ǒ": 200,
      "ǥ": 201,
      "ǵ": 202,
      "ț": 203,
      "ɒ": 204,
      "ɕ": 205,
      "ə": 206,
      "ɛ": 207,
      "ɡ": 208,
      "ɪ": 209,
      "ʎ": 210,
      "ʰ": 211,
      "ʱ": 212,
      "ʲ": 213,
      "ʻ": 214,
      "ʼ": 215,
      "ʾ": 216,
      "ˀ": 217,
      "ˈ": 218,
      "ˌ": 219,
      "ː": 220,
      "˚": 221,
      "˭": 222,
      "̍": 223,
      "̤": 224,
      "̧": 225,
      "Β": 226,
      "Γ": 227,
      "Π": 228,
      "Χ": 229,
      "ά": 230,
      "έ": 231,
      "ή": 232,
      "ί": 233,
      "α": 234,
      "β": 235,
      "γ": 236,
      "δ": 237,
      "ε": 238,
      "θ": 239,
      "ι": 240,
      "κ": 241,
      "λ": 242,
      "μ": 243,
      "ν": 244,
      "ο": 245,
      "ρ": 246,
      "ς": 247,
      "σ": 248,
      "τ": 249,
      "υ": 250,
      "χ": 251,
      "ω": 252,
      "ό": 253,
      "Е": 254,
      "б": 255,
      "в": 256,
      "е": 257,
      "з": 258,
      "и": 259,
      "й": 260,
      "м": 261,
      "о": 262,
      "р": 263,
      "с": 264,
      "у": 265,
      "ф": 266,
      "ш": 267,
      "ъ": 268,
      "ы": 269,
      "ь": 270,
      "ю": 271,
      "я": 272,
      "і": 273,
      "ѣ": 274,
      "ѫ": 275,
      "ѭ": 276,
      "ѳ": 277,
      "ѵ": 278,
      "ְ": 279,
      "ִ": 280,
      "ַ": 281,
      "י": 282,
      "ם": 283,
      "מ": 284,
      "צ": 285,
      "ר": 286,
      "ء": 287,
      "ب": 288,
      "ج": 289,
      "د": 290,
      "س": 291,
      "ع": 292,
      "क": 293,
      "ठ": 294,
      "त": 295,
      "न": 296,
      "प": 297,
      "र": 298,
      "ष": 299,
      "ा": 300,
      "ि": 301,
      "ु": 302,
      "्": 303,
      "เ": 304,
      "แ": 305,
      "โ": 306,
      "ใ": 307,
      "ไ": 308,
      "န": 309,
      "သ": 310,
      "ာ": 311,
      "း": 312,
      "Ḍ": 313,
      "Ḥ": 314,
      "ḥ": 315,
      "ḱ": 316,
      "ḷ": 317,
      "ṃ": 318,
      "ṅ": 319,
      "ṇ": 320,
      "ṛ": 321,
      "Ṣ": 322,
      "ṣ": 323,
      "ṭ": 324,
      "Ẓ": 325,
      "ả": 326,
      "ấ": 327,
      "ế": 328,
      "ề": 329,
      "ễ": 330,
      "ố": 331,
      "ồ": 332,
      "ἀ": 333,
      "ἰ": 334,
      "ὠ": 335,
      "ῆ": 336,
      "ῖ": 337,
      "‑": 338,
      "–": 339,
      "—": 340,
      "‘": 341,
      "’": 342,
      "“": 343,
      "”": 344,
      "…": 345,
      "′": 346,
      "⁄": 347,
      "₤": 348,
      "€": 349,
      "₹": 350,
      "№": 351,
      "→": 352,
      "−": 353,
      "∖": 354,
      "√": 355,
      "≥": 356,
      "⋅": 357,
      "◌": 358,
      "♠": 359,
      "♯": 360,
      "❤": 361,
      "⟨": 362,
      "⟩": 363,
      "下": 364,
      "北": 365,
      "基": 366,
      "士": 367,
      "家": 368,
      "導": 369,
      "徒": 370,
      "斗": 371,
      "星": 372,
      "武": 373,
      "江": 374,
      "泉": 375,
      "泥": 376,
      "渤": 377,
      "漳": 378,
      "片": 379,
      "瑚": 380,
      "督": 381,
      "系": 382,
      "統": 383,
      "緣": 384,
      "航": 385,
      "蝴": 386,
      "衛": 387,
      "起": 388,
      "교": 389,
      "그": 390,
      "기": 391,
      "도": 392,
      "독": 393,
      "리": 394,
      "스": 395,
      "e ": 396,
      "t'": 397,
      "er": 398,
      ": ": 399,
      ": [": 400,
      "t': [": 401,
      "an": 402,
      "ar": 403,
      "st": 404,
      "s ": 405,
      "th": 406,
      "te": 407,
      ", ": 408,
      "wer": 409,
      "at": 410,
      "in": 411,
      "ans": 412,
      "d ": 413,
      "star": 414,
      "tex": 415,
      "answer": 416,
      "'tex": 417,
      ", '": 418,
      ":{": 419,
      "]}": 420,
      "], '": 421,
      "_star": 422,
      "answer_star": 423,
      "'text': [": 424,
      ":{'text': [": 425,
      "]}\n": 426,
      "], 'answer_star": 427,
      "], 'answer_start': [": 428,
      ":{'text': ['": 429,
      "?:{'text': ['": 430,
      "'], 'answer_start': [": 431,
      "on": 432,
      "the ": 433,
      "Wh": 434,
      "en": 435,
      "at ": 436,
      "or": 437,
      "y ": 438,
      "al": 439,
      "of": 440,
      "of ": 441,
      "o ": 442,
      "re": 443,
      "ic": 444,
      "What ": 445,
      "t ": 446,
      "ion": 447,
      "in ": 448,
      "di": 449,
      "ou": 450,
      "ed ": 451,
      "it": 452,
      "  ": 453,
      "as ": 454,
      "ing": 455,
      "a ": 456,
      "om": 457,
      "to ": 458,
      "is ": 459,
      "wh": 460,
      "er ": 461,
      "es ": 462,
      "al ": 463,
      "ch": 464,
      "ol": 465,
      "ing ": 466,
      "es": 467,
      "an ": 468,
      "el": 469,
      "and ": 470,
      "was ": 471,
      "il": 472,
      "'], 'answer_start': [1": 473,
      "ow": 474,
      "ur": 475,
      "am": 476,
      "did ": 477,
      "is": 478,
      "ec": 479,
      "as": 480,
      "ac": 481,
      "or ": 482,
      "ion ": 483,
      "op": 484,
      "en ": 485,
      "'], 'answer_start': [2": 486,
      "st ": 487,
      "n ": 488,
      "    ": 489,
      "us": 490,
      "'], 'answer_start': [3": 491,
      "ent": 492,
      "e of ": 493,
      "ir": 494,
      "ig": 495,
      "h ": 496,
      "tr": 497,
      "what ": 498,
      "le": 499,
      "iv": 500,
      "ow ": 501,
      "'], 'answer_start': [4": 502,
      "0]}\n": 503,
      "pr": 504,
      "on ": 505,
      "th ": 506,
      "im": 507,
      "em": 508,
      "id": 509,
      "ag": 510,
      "ad": 511,
      "ate": 512,
      "ul": 513,
      "un": 514,
      "man": 515,
      "all": 516,
      "ov": 517,
      "'s ": 518,
      "e?:{'text': ['": 519,
      "s?:{'text': ['": 520,
      "con": 521,
      "7]}\n": 522,
      "5]}\n": 523,
      "9]}\n": 524,
      "1]}\n": 525,
      "av": 526,
      "4]}\n": 527,
      "'], 'answer_start': [5": 528,
      "6]}\n": 529,
      "2]}\n": 530,
      "3]}\n": 531,
      "8]}\n": 532,
      "ent ": 533,
      "How ": 534,
      "Who ": 535,
      "ear": 536,
      "d?:{'text': ['": 537,
      "oc": 538,
      "et": 539,
      "ab": 540,
      "00": 541,
      "ic ": 542,
      "ap": 543,
      "os": 544,
      "ation": 545,
      "for ": 546,
      "19": 547,
      "What is ": 548,
      "of the ": 549,
      "oun": 550,
      "was the ": 551,
      "ter": 552,
      "k ": 553,
      "pl": 554,
      "com": 555,
      "ich ": 556,
      "are ": 557,
      "res": 558,
      "de": 559,
      "for": 560,
      "        ": 561,
      "ation ": 562,
      "in the ": 563,
      "Th": 564,
      "um": 565,
      "fr": 566,
      "od": 567,
      "le ": 568,
      "many ": 569,
      "'], 'answer_start': [6": 570,
      "ex": 571,
      "wi": 572,
      "per": 573,
      "ist": 574,
      "do": 575,
      "When ": 576,
      "y?:{'text': ['": 577,
      "ted ": 578,
      "ch ": 579,
      "that ": 580,
      "uc": 581,
      "be": 582,
      "om ": 583,
      "The ": 584,
      "ity ": 585,
      "ot": 586,
      "did the ": 587,
      "se": 588,
      "ere ": 589,
      "gr": 590,
      "were ": 591,
      "year": 592,
      "ate ": 593,
      "ew": 594,
      "ut": 595,
      "Ch": 596,
      "sh": 597,
      "ly ": 598,
      "ed": 599,
      "enc": 600,
      "with ": 601,
      "by ": 602,
      "t'], 'answer_start': [": 603,
      "In ": 604,
      "does ": 605,
      "ub": 606,
      "str": 607,
      "ib": 608,
      "ma": 609,
      "igh": 610,
      "par": 611,
      "ev": 612,
      "ill": 613,
      "'], 'answer_start': [7": 614,
      "What is the ": 615,
      "How many ": 616,
      "qu": 617,
      "Which ": 618,
      "ong": 619,
      "the": 620,
      "sp": 621,
      "est": 622,
      "ang": 623,
      "if": 624,
      "and": 625,
      "from ": 626,
      "anc": 627,
      "cl": 628,
      "our": 629,
      "ers": 630,
      "20": 631,
      "p ": 632,
      "s of ": 633,
      "hav": 634,
      "ies ": 635,
      "wor": 636,
      "ay": 637,
      "ive ": 638,
      "nam": 639,
      "yp": 640,
      "e of the ": 641,
      "por": 642,
      "m ": 643,
      "cent": 644,
      "iz": 645,
      "be ": 646,
      "ain": 647,
      "oth": 648,
      "af": 649,
      "ated ": 650,
      "ar ": 651,
      "Where ": 652,
      "'], 'answer_start': [8": 653,
      "fir": 654,
      "ers ": 655,
      "ass": 656,
      "ect": 657,
      "                ": 658,
      "ial ": 659,
      "rit": 660,
      "200": 661,
      "ian ": 662,
      "og": 663,
      "ud": 664,
      "to the ": 665,
      "year ": 666,
      "it ": 667,
      "es?:{'text': ['": 668,
      "rec": 669,
      "ld ": 670,
      "la": 671,
      "ical ": 672,
      "ant": 673,
      "a?:{'text': ['": 674,
      "ew ": 675,
      "do ": 676,
      "What was the ": 677,
      "ir ": 678,
      "18": 679,
      "first ": 680,
      "typ": 681,
      "over": 682,
      "St": 683,
      "Un": 684,
      "pe": 685,
      "su": 686,
      "inc": 687,
      "ay ": 688,
      "ary ": 689,
      "comp": 690,
      "ad ": 691,
      "act": 692,
      "ak": 693,
      "Ar": 694,
      "ep": 695,
      "ob": 696,
      "ed to ": 697,
      "have ": 698,
      "ed?:{'text': ['": 699,
      "ell": 700,
      "we": 701,
      "In": 702,
      "all ": 703,
      "ong ": 704,
      "'], 'answer_start': [9": 705,
      "sc": 706,
      "oo": 707,
      "ter ": 708,
      "In what ": 709,
      "ph": 710,
      "ost ": 711,
      "which ": 712,
      "me": 713,
      "po": 714,
      "?:{'text': ['the ": 715,
      " :{'text': ['": 716,
      "ed the ": 717,
      "mer": 718,
      "ally ": 719,
      "ish ": 720,
      "201": 721,
      "br": 722,
      "i ": 723,
      "? :{'text': ['": 724,
      "coun": 725,
      "other ": 726,
      "ia ": 727,
      "tw": 728,
      "Fr": 729,
      "est ": 730,
      "ment ": 731,
      "rel": 732,
      "et ": 733,
      "e the ": 734,
      "ast": 735,
      "ten": 736,
      "ff": 737,
      "arg": 738,
      "ish": 739,
      "ip": 740,
      "out ": 741,
      "ra": 742,
      "ess": 743,
      "'], 'answer_start': [10": 744,
      " m": 745,
      "form": 746,
      "ord": 747,
      "has ": 748,
      "sy": 749,
      "ot ": 750,
      "Al": 751,
      "ure": 752,
      "cr": 753,
      "e in ": 754,
      "type of ": 755,
      "ing the ": 756,
      "ern ": 757,
      "is the ": 758,
      "end": 759,
      "tion": 760,
      "tion ": 761,
      "'], 'answer_start': [0]}\n": 762,
      "s and ": 763,
      "their ": 764,
      "what": 765,
      "el ": 766,
      "ath": 767,
      "age ": 768,
      ", what ": 769,
      "most ": 770,
      "pres": 771,
      "own ": 772,
      "Pr": 773,
      ". ": 774,
      "ed in ": 775,
      "ome ": 776,
      "'], 'answer_start': [11": 777,
      "gl": 778,
      "peop": 779,
      "mon": 780,
      "ug": 781,
      "fl": 782,
      "ant ": 783,
      "tim": 784,
      "ard": 785,
      "loc": 786,
      "ould ": 787,
      "reg": 788,
      "pop": 789,
      "can ": 790,
      "ia": 791,
      "e to ": 792,
      "t of ": 793,
      "ts ": 794,
      "ian": 795,
      "pol": 796,
      "ubl": 797,
      "pre": 798,
      "erv": 799,
      "pro": 800,
      "Amer": 801,
      "he": 802,
      "its ": 803,
      " and ": 804,
      "what?:{'text': ['": 805,
      "'], 'answer_start': [12": 806,
      "tur": 807,
      "Americ": 808,
      "oug": 809,
      "What was ": 810,
      "off": 811,
      "When did ": 812,
      "one ": 813,
      "gen": 814,
      "pos": 815,
      "t?:{'text': ['": 816,
      "ous ": 817,
      "centur": 818,
      "countr": 819,
      "bu": 820,
      "cons": 821,
      "his ": 822,
      "not ": 823,
      "popul": 824,
      "\"], 'answer_start': [": 825,
      "fin": 826,
      ":{'text': [\"": 827,
      "dr": 828,
      "min": 829,
      "ed by ": 830,
      "mu": 831,
      "for the ": 832,
      "col": 833,
      "part": 834,
      "il ": 835,
      "ore ": 836,
      "li": 837,
      "are": 838,
      "grou": 839,
      "oduc": 840,
      "two ": 841,
      "'], 'answer_start': [13": 842,
      "Gre": 843,
      "stem": 844,
      "ign": 845,
      "                                ": 846,
      "bec": 847,
      "En": 848,
      "er?:{'text': ['": 849,
      "ment": 850,
      "ational ": 851,
      "to": 852,
      "sl": 853,
      "ne": 854,
      "att": 855,
      "What did ": 856,
      "0 ": 857,
      "?:{'text': [\"": 858,
      "overn": 859,
      "New ": 860,
      ", and ": 861,
      "'], 'answer_start': [15": 862,
      "id ": 863,
      "s in ": 864,
      "'], 'answer_start': [14": 865,
      "olog": 866,
      "?:{'text': ['1": 867,
      "ivers": 868,
      "emb": 869,
      "comm": 870,
      "Mar": 871,
      "und": 872,
      "how ": 873,
      "s'], 'answer_start': [2": 874,
      "ol ": 875,
      "kn": 876,
      "on the ": 877,
      "inter": 878,
      "econ": 879,
      "ite": 880,
      "cho": 881,
      "aus": 882,
      "cre": 883,
      "ind": 884,
      "What are ": 885,
      "ain ": 886,
      "'], 'answer_start': [16": 887,
      "people ": 888,
      "able ": 889,
      "does the ": 890,
      "des": 891,
      "dur": 892,
      "ine ": 893,
      "ited ": 894,
      "org": 895,
      "am ": 896,
      "system": 897,
      "us ": 898,
      "dec": 899,
      "bet": 900,
      "US": 901,
      "arr": 902,
      "larg": 903,
      "In what year ": 904,
      "d of ": 905,
      "ens": 906,
      "ity": 907,
      "Brit": 908,
      "angu": 909,
      "oy": 910,
      "eral ": 911,
      "ire": 912,
      "um ": 913,
      "ight ": 914,
      "up": 915,
      "A ": 916,
      "s are ": 917,
      "Com": 918,
      "when ": 919,
      "What type of ": 920,
      "'], 'answer_start': [19": 921,
      "ame ": 922,
      "ous": 923,
      "'], 'answer_start': [18": 924,
      "'], 'answer_start': [17": 925,
      "ism": 926,
      "foun": 927,
      "?:{'text': ['S": 928,
      "govern": 929,
      "langu": 930,
      "tor": 931,
      "ese ": 932,
      "ween ": 933,
      "ard ": 934,
      "after ": 935,
      "ies": 936,
      "much ": 937,
      "dev": 938,
      "inv": 939,
      "s'], 'answer_start': [3": 940,
      "oh": 941,
      ",00": 942,
      "ade ": 943,
      "ess ": 944,
      "An": 945,
      "ist ": 946,
      "publ": 947,
      "prov": 948,
      "app": 949,
      "ke ": 950,
      "ann": 951,
      "ast ": 952,
      "Nor": 953,
      "more ": 954,
      "peri": 955,
      "name of the ": 956,
      "aw": 957,
      "plac": 958,
      "f ": 959,
      "produc": 960,
      "cur": 961,
      "y of ": 962,
      "had ": 963,
      "ach": 964,
      "leg": 965,
      "between ": 966,
      "bel": 967,
      "fe": 968,
      "adi": 969,
      "trans": 970,
      "Par": 971,
      "'], 'answer_start': [21": 972,
      "contr": 973,
      "Why ": 974,
      "hel": 975,
      "uss": 976,
      "ing?:{'text': ['": 977,
      "ates ": 978,
      "tem": 979,
      "s'], 'answer_start': [4": 980,
      "es of ": 981,
      "'], 'answer_start': [20": 982,
      "ence ": 983,
      "serv": 984,
      "th centur": 985,
      "eg": 986,
      "ice ": 987,
      "Con": 988,
      "au": 989,
      "Eur": 990,
      "bas": 991,
      "reas": 992,
      "Ger": 993,
      "used ": 994,
      "beg": 995,
      "\" ": 996,
      "over ": 997,
      "than ": 998,
      "17": 999,
      "s, ": 1000,
      "ation of ": 1001,
      "199": 1002,
      "Br": 1003,
      "iss": 1004,
      "ack": 1005,
      "'], 'answer_start': [22": 1006,
      "spec": 1007,
      "air": 1008,
      "wer ": 1009,
      "buil": 1010,
      "erg": 1011,
      "ations ": 1012,
      "ue ": 1013,
      "on?:{'text': ['": 1014,
      "'], 'answer_start': [23": 1015,
      "mov": 1016,
      "tre": 1017,
      "ide": 1018,
      "been ": 1019,
      "stit": 1020,
      "ustr": 1021,
      "who ": 1022,
      "Engl": 1023
    },
    "merges": [
      [
        "e",
        " "
      ],
      [
        "t",
        "'"
      ],
      [
        "e",
        "r"
      ],
      [
        ":",
        " "
      ],
      [
        ": ",
        "["
      ],
      [
        "t'",
        ": ["
      ],
      [
        "a",
        "n"
      ],
      [
        "a",
        "r"
      ],
      [
        "s",
        "t"
      ],
      [
        "s",
        " "
      ],
      [
        "t",
        "h"
      ],
      [
        "t",
        "e"
      ],
      [
        ",",
        " "
      ],
      [
        "w",
        "er"
      ],
      [
        "a",
        "t"
      ],
      [
        "i",
        "n"
      ],
      [
        "an",
        "s"
      ],
      [
        "d",
        " "
      ],
      [
        "st",
        "ar"
      ],
      [
        "te",
        "x"
      ],
      [
        "ans",
        "wer"
      ],
      [
        "'",
        "tex"
      ],
      [
        ", ",
        "'"
      ],
      [
        ":",
        "{"
      ],
      [
        "]",
        "}"
      ],
      [
        "]",
        ", '"
      ],
      [
        "_",
        "star"
      ],
      [
        "answer",
        "_star"
      ],
      [
        "'tex",
        "t': ["
      ],
      [
        ":{",
        "'text': ["
      ],
      [
        "]}",
        "\n"
      ],
      [
        "], '",
        "answer_star"
      ],
      [
        "], 'answer_star",
        "t': ["
      ],
      [
        ":{'text': [",
        "'"
      ],
      [
        "?",
        ":{'text': ['"
      ],
      [
        "'",
        "], 'answer_start': ["
      ],
      [
        "o",
        "n"
      ],
      [
        "th",
        "e "
      ],
      [
        "W",
        "h"
      ],
      [
        "e",
        "n"
      ],
      [
        "at",
        " "
      ],
      [
        "o",
        "r"
      ],
      [
        "y",
        " "
      ],
      [
        "a",
        "l"
      ],
      [
        "o",
        "f"
      ],
      [
        "of",
        " "
      ],
      [
        "o",
        " "
      ],
      [
        "r",
        "e"
      ],
      [
        "i",
        "c"
      ],
      [
        "Wh",
        "at "
      ],
      [
        "t",
        " "
      ],
      [
        "i",
        "on"
      ],
      [
        "in",
        " "
      ],
      [
        "d",
        "i"
      ],
      [
        "o",
        "u"
      ],
      [
        "e",
        "d "
      ],
      [
        "i",
        "t"
      ],
      [
        " ",
        " "
      ],
      [
        "a",
        "s "
      ],
      [
        "in",
        "g"
      ],
      [
        "a",
        " "
      ],
      [
        "o",
        "m"
      ],
      [
        "t",
        "o "
      ],
      [
        "i",
        "s "
      ],
      [
        "w",
        "h"
      ],
      [
        "er",
        " "
      ],
      [
        "e",
        "s "
      ],
      [
        "al",
        " "
      ],
      [
        "c",
        "h"
      ],
      [
        "o",
        "l"
      ],
      [
        "ing",
        " "
      ],
      [
        "e",
        "s"
      ],
      [
        "an",
        " "
      ],
      [
        "e",
        "l"
      ],
      [
        "an",
        "d "
      ],
      [
        "w",
        "as "
      ],
      [
        "i",
        "l"
      ],
      [
        "'], 'answer_start': [",
        "1"
      ],
      [
        "o",
        "w"
      ],
      [
        "u",
        "r"
      ],
      [
        "a",
        "m"
      ],
      [
        "di",
        "d "
      ],
      [
        "i",
        "s"
      ],
      [
        "e",
        "c"
      ],
      [
        "a",
        "s"
      ],
      [
        "a",
        "c"
      ],
      [
        "or",
        " "
      ],
      [
        "ion",
        " "
      ],
      [
        "o",
        "p"
      ],
      [
        "en",
        " "
      ],
      [
        "'], 'answer_start': [",
        "2"
      ],
      [
        "st",
        " "
      ],
      [
        "n",
        " "
      ],
      [
        "  ",
        "  "
      ],
      [
        "u",
        "s"
      ],
      [
        "'], 'answer_start': [",
        "3"
      ],
      [
        "en",
        "t"
      ],
      [
        "e ",
        "of "
      ],
      [
        "i",
        "r"
      ],
      [
        "i",
        "g"
      ],
      [
        "h",
        " "
      ],
      [
        "t",
        "r"
      ],
      [
        "wh",
        "at "
      ],
      [
        "l",
        "e"
      ],
      [
        "i",
        "v"
      ],
      [
        "ow",
        " "
      ],
      [
        "'], 'answer_start': [",
        "4"
      ],
      [
        "0",
        "]}\n"
      ],
      [
        "p",
        "r"
      ],
      [
        "on",
        " "
      ],
      [
        "th",
        " "
      ],
      [
        "i",
        "m"
      ],
      [
        "e",
        "m"
      ],
      [
        "i",
        "d"
      ],
      [
        "a",
        "g"
      ],
      [
        "a",
        "d"
      ],
      [
        "a",
        "te"
      ],
      [
        "u",
        "l"
      ],
      [
        "u",
        "n"
      ],
      [
        "m",
        "an"
      ],
      [
        "al",
        "l"
      ],
      [
        "o",
        "v"
      ],
      [
        "'",
        "s "
      ],
      [
        "e",
        "?:{'text': ['"
      ],
      [
        "s",
        "?:{'text': ['"
      ],
      [
        "c",
        "on"
      ],
      [
        "7",
        "]}\n"
      ],
      [
        "5",
        "]}\n"
      ],
      [
        "9",
        "]}\n"
      ],
      [
        "1",
        "]}\n"
      ],
      [
        "a",
        "v"
      ],
      [
        "4",
        "]}\n"
      ],
      [
        "'], 'answer_start': [",
        "5"
      ],
      [
        "6",
        "]}\n"
      ],
      [
        "2",
        "]}\n"
      ],
      [
        "3",
        "]}\n"
      ],
      [
        "8",
        "]}\n"
      ],
      [
        "en",
        "t "
      ],
      [
        "H",
        "ow "
      ],
      [
        "Wh",
        "o "
      ],
      [
        "e",
        "ar"
      ],
      [
        "d",
        "?:{'text': ['"
      ],
      [
        "o",
        "c"
      ],
      [
        "e",
        "t"
      ],
      [
        "a",
        "b"
      ],
      [
        "0",
        "0"
      ],
      [
        "ic",
        " "
      ],
      [
        "a",
        "p"
      ],
      [
        "o",
        "s"
      ],
      [
        "at",
        "ion"
      ],
      [
        "f",
        "or "
      ],
      [
        "1",
        "9"
      ],
      [
        "What ",
        "is "
      ],
      [
        "of ",
        "the "
      ],
      [
        "ou",
        "n"
      ],
      [
        "was ",
        "the "
      ],
      [
        "t",
        "er"
      ],
      [
        "k",
        " "
      ],
      [
        "p",
        "l"
      ],
      [
        "c",
        "om"
      ],
      [
        "ic",
        "h "
      ],
      [
        "ar",
        "e "
      ],
      [
        "re",
        "s"
      ],
      [
        "d",
        "e"
      ],
      [
        "f",
        "or"
      ],
      [
        "    ",
        "    "
      ],
      [
        "at",
        "ion "
      ],
      [
        "in ",
        "the "
      ],
      [
        "T",
        "h"
      ],
      [
        "u",
        "m"
      ],
      [
        "f",
        "r"
      ],
      [
        "o",
        "d"
      ],
      [
        "l",
        "e "
      ],
      [
        "man",
        "y "
      ],
      [
        "'], 'answer_start': [",
        "6"
      ],
      [
        "e",
        "x"
      ],
      [
        "w",
        "i"
      ],
      [
        "p",
        "er"
      ],
      [
        "i",
        "st"
      ],
      [
        "d",
        "o"
      ],
      [
        "Wh",
        "en "
      ],
      [
        "y",
        "?:{'text': ['"
      ],
      [
        "te",
        "d "
      ],
      [
        "ch",
        " "
      ],
      [
        "th",
        "at "
      ],
      [
        "u",
        "c"
      ],
      [
        "b",
        "e"
      ],
      [
        "om",
        " "
      ],
      [
        "Th",
        "e "
      ],
      [
        "it",
        "y "
      ],
      [
        "o",
        "t"
      ],
      [
        "did ",
        "the "
      ],
      [
        "s",
        "e"
      ],
      [
        "er",
        "e "
      ],
      [
        "g",
        "r"
      ],
      [
        "wer",
        "e "
      ],
      [
        "y",
        "ear"
      ],
      [
        "at",
        "e "
      ],
      [
        "e",
        "w"
      ],
      [
        "u",
        "t"
      ],
      [
        "C",
        "h"
      ],
      [
        "s",
        "h"
      ],
      [
        "l",
        "y "
      ],
      [
        "e",
        "d"
      ],
      [
        "en",
        "c"
      ],
      [
        "wi",
        "th "
      ],
      [
        "b",
        "y "
      ],
      [
        "t'",
        "], 'answer_start': ["
      ],
      [
        "I",
        "n "
      ],
      [
        "do",
        "es "
      ],
      [
        "u",
        "b"
      ],
      [
        "st",
        "r"
      ],
      [
        "i",
        "b"
      ],
      [
        "m",
        "a"
      ],
      [
        "ig",
        "h"
      ],
      [
        "p",
        "ar"
      ],
      [
        "e",
        "v"
      ],
      [
        "il",
        "l"
      ],
      [
        "'], 'answer_start': [",
        "7"
      ],
      [
        "What is ",
        "the "
      ],
      [
        "How ",
        "many "
      ],
      [
        "q",
        "u"
      ],
      [
        "Wh",
        "ich "
      ],
      [
        "on",
        "g"
      ],
      [
        "th",
        "e"
      ],
      [
        "s",
        "p"
      ],
      [
        "e",
        "st"
      ],
      [
        "an",
        "g"
      ],
      [
        "i",
        "f"
      ],
      [
        "an",
        "d"
      ],
      [
        "fr",
        "om "
      ],
      [
        "an",
        "c"
      ],
      [
        "c",
        "l"
      ],
      [
        "ou",
        "r"
      ],
      [
        "er",
        "s"
      ],
      [
        "2",
        "0"
      ],
      [
        "p",
        " "
      ],
      [
        "s ",
        "of "
      ],
      [
        "h",
        "av"
      ],
      [
        "i",
        "es "
      ],
      [
        "w",
        "or"
      ],
      [
        "a",
        "y"
      ],
      [
        "iv",
        "e "
      ],
      [
        "n",
        "am"
      ],
      [
        "y",
        "p"
      ],
      [
        "e of ",
        "the "
      ],
      [
        "p",
        "or"
      ],
      [
        "m",
        " "
      ],
      [
        "c",
        "ent"
      ],
      [
        "i",
        "z"
      ],
      [
        "b",
        "e "
      ],
      [
        "a",
        "in"
      ],
      [
        "o",
        "th"
      ],
      [
        "a",
        "f"
      ],
      [
        "ate",
        "d "
      ],
      [
        "ar",
        " "
      ],
      [
        "Wh",
        "ere "
      ],
      [
        "'], 'answer_start': [",
        "8"
      ],
      [
        "f",
        "ir"
      ],
      [
        "er",
        "s "
      ],
      [
        "as",
        "s"
      ],
      [
        "ec",
        "t"
      ],
      [
        "        ",
        "        "
      ],
      [
        "i",
        "al "
      ],
      [
        "r",
        "it"
      ],
      [
        "2",
        "00"
      ],
      [
        "i",
        "an "
      ],
      [
        "o",
        "g"
      ],
      [
        "u",
        "d"
      ],
      [
        "to ",
        "the "
      ],
      [
        "year",
        " "
      ],
      [
        "i",
        "t "
      ],
      [
        "es",
        "?:{'text': ['"
      ],
      [
        "re",
        "c"
      ],
      [
        "l",
        "d "
      ],
      [
        "l",
        "a"
      ],
      [
        "ic",
        "al "
      ],
      [
        "an",
        "t"
      ],
      [
        "a",
        "?:{'text': ['"
      ],
      [
        "ew",
        " "
      ],
      [
        "d",
        "o "
      ],
      [
        "What ",
        "was the "
      ],
      [
        "ir",
        " "
      ],
      [
        "1",
        "8"
      ],
      [
        "fir",
        "st "
      ],
      [
        "t",
        "yp"
      ],
      [
        "ov",
        "er"
      ],
      [
        "S",
        "t"
      ],
      [
        "U",
        "n"
      ],
      [
        "p",
        "e"
      ],
      [
        "s",
        "u"
      ],
      [
        "in",
        "c"
      ],
      [
        "a",
        "y "
      ],
      [
        "ar",
        "y "
      ],
      [
        "com",
        "p"
      ],
      [
        "a",
        "d "
      ],
      [
        "ac",
        "t"
      ],
      [
        "a",
        "k"
      ],
      [
        "A",
        "r"
      ],
      [
        "e",
        "p"
      ],
      [
        "o",
        "b"
      ],
      [
        "ed ",
        "to "
      ],
      [
        "hav",
        "e "
      ],
      [
        "e",
        "d?:{'text': ['"
      ],
      [
        "el",
        "l"
      ],
      [
        "w",
        "e"
      ],
      [
        "I",
        "n"
      ],
      [
        "all",
        " "
      ],
      [
        "ong",
        " "
      ],
      [
        "'], 'answer_start': [",
        "9"
      ],
      [
        "s",
        "c"
      ],
      [
        "o",
        "o"
      ],
      [
        "t",
        "er "
      ],
      [
        "In ",
        "what "
      ],
      [
        "p",
        "h"
      ],
      [
        "o",
        "st "
      ],
      [
        "wh",
        "ich "
      ],
      [
        "m",
        "e"
      ],
      [
        "p",
        "o"
      ],
      [
        "?:{'text': ['",
        "the "
      ],
      [
        " ",
        ":{'text': ['"
      ],
      [
        "ed ",
        "the "
      ],
      [
        "m",
        "er"
      ],
      [
        "all",
        "y "
      ],
      [
        "is",
        "h "
      ],
      [
        "20",
        "1"
      ],
      [
        "b",
        "r"
      ],
      [
        "i",
        " "
      ],
      [
        "?",
        " :{'text': ['"
      ],
      [
        "c",
        "oun"
      ],
      [
        "oth",
        "er "
      ],
      [
        "i",
        "a "
      ],
      [
        "t",
        "w"
      ],
      [
        "F",
        "r"
      ],
      [
        "e",
        "st "
      ],
      [
        "m",
        "ent "
      ],
      [
        "re",
        "l"
      ],
      [
        "e",
        "t "
      ],
      [
        "e ",
        "the "
      ],
      [
        "a",
        "st"
      ],
      [
        "te",
        "n"
      ],
      [
        "f",
        "f"
      ],
      [
        "ar",
        "g"
      ],
      [
        "is",
        "h"
      ],
      [
        "i",
        "p"
      ],
      [
        "ou",
        "t "
      ],
      [
        "r",
        "a"
      ],
      [
        "es",
        "s"
      ],
      [
        "'], 'answer_start': [1",
        "0"
      ],
      [
        " ",
        "m"
      ],
      [
        "for",
        "m"
      ],
      [
        "or",
        "d"
      ],
      [
        "h",
        "as "
      ],
      [
        "s",
        "y"
      ],
      [
        "o",
        "t "
      ],
      [
        "A",
        "l"
      ],
      [
        "u",
        "re"
      ],
      [
        "c",
        "r"
      ],
      [
        "e ",
        "in "
      ],
      [
        "typ",
        "e of "
      ],
      [
        "ing ",
        "the "
      ],
      [
        "er",
        "n "
      ],
      [
        "is ",
        "the "
      ],
      [
        "en",
        "d"
      ],
      [
        "t",
        "ion"
      ],
      [
        "t",
        "ion "
      ],
      [
        "'], 'answer_start': [",
        "0]}\n"
      ],
      [
        "s ",
        "and "
      ],
      [
        "the",
        "ir "
      ],
      [
        "wh",
        "at"
      ],
      [
        "el",
        " "
      ],
      [
        "a",
        "th"
      ],
      [
        "ag",
        "e "
      ],
      [
        ", ",
        "what "
      ],
      [
        "m",
        "ost "
      ],
      [
        "p",
        "res"
      ],
      [
        "ow",
        "n "
      ],
      [
        "P",
        "r"
      ],
      [
        ".",
        " "
      ],
      [
        "ed ",
        "in "
      ],
      [
        "om",
        "e "
      ],
      [
        "'], 'answer_start': [1",
        "1"
      ],
      [
        "g",
        "l"
      ],
      [
        "pe",
        "op"
      ],
      [
        "m",
        "on"
      ],
      [
        "u",
        "g"
      ],
      [
        "f",
        "l"
      ],
      [
        "an",
        "t "
      ],
      [
        "t",
        "im"
      ],
      [
        "ar",
        "d"
      ],
      [
        "l",
        "oc"
      ],
      [
        "ou",
        "ld "
      ],
      [
        "re",
        "g"
      ],
      [
        "p",
        "op"
      ],
      [
        "c",
        "an "
      ],
      [
        "i",
        "a"
      ],
      [
        "e ",
        "to "
      ],
      [
        "t ",
        "of "
      ],
      [
        "t",
        "s "
      ],
      [
        "i",
        "an"
      ],
      [
        "p",
        "ol"
      ],
      [
        "ub",
        "l"
      ],
      [
        "p",
        "re"
      ],
      [
        "er",
        "v"
      ],
      [
        "pr",
        "o"
      ],
      [
        "A",
        "mer"
      ],
      [
        "h",
        "e"
      ],
      [
        "it",
        "s "
      ],
      [
        " ",
        "and "
      ],
      [
        "what",
        "?:{'text': ['"
      ],
      [
        "'], 'answer_start': [1",
        "2"
      ],
      [
        "t",
        "ur"
      ],
      [
        "Amer",
        "ic"
      ],
      [
        "ou",
        "g"
      ],
      [
        "What ",
        "was "
      ],
      [
        "of",
        "f"
      ],
      [
        "When ",
        "did "
      ],
      [
        "on",
        "e "
      ],
      [
        "g",
        "en"
      ],
      [
        "p",
        "os"
      ],
      [
        "t",
        "?:{'text': ['"
      ],
      [
        "ou",
        "s "
      ],
      [
        "cent",
        "ur"
      ],
      [
        "coun",
        "tr"
      ],
      [
        "b",
        "u"
      ],
      [
        "con",
        "s"
      ],
      [
        "h",
        "is "
      ],
      [
        "n",
        "ot "
      ],
      [
        "pop",
        "ul"
      ],
      [
        "\"",
        "], 'answer_start': ["
      ],
      [
        "f",
        "in"
      ],
      [
        ":{'text': [",
        "\""
      ],
      [
        "d",
        "r"
      ],
      [
        "m",
        "in"
      ],
      [
        "ed ",
        "by "
      ],
      [
        "m",
        "u"
      ],
      [
        "for ",
        "the "
      ],
      [
        "c",
        "ol"
      ],
      [
        "par",
        "t"
      ],
      [
        "il",
        " "
      ],
      [
        "or",
        "e "
      ],
      [
        "l",
        "i"
      ],
      [
        "ar",
        "e"
      ],
      [
        "gr",
        "ou"
      ],
      [
        "od",
        "uc"
      ],
      [
        "tw",
        "o "
      ],
      [
        "'], 'answer_start': [1",
        "3"
      ],
      [
        "G",
        "re"
      ],
      [
        "st",
        "em"
      ],
      [
        "ig",
        "n"
      ],
      [
        "                ",
        "                "
      ],
      [
        "b",
        "ec"
      ],
      [
        "E",
        "n"
      ],
      [
        "er",
        "?:{'text': ['"
      ],
      [
        "m",
        "ent"
      ],
      [
        "ation",
        "al "
      ],
      [
        "t",
        "o"
      ],
      [
        "s",
        "l"
      ],
      [
        "n",
        "e"
      ],
      [
        "at",
        "t"
      ],
      [
        "What ",
        "did "
      ],
      [
        "0",
        " "
      ],
      [
        "?",
        ":{'text': [\""
      ],
      [
        "over",
        "n"
      ],
      [
        "N",
        "ew "
      ],
      [
        ", ",
        "and "
      ],
      [
        "'], 'answer_start': [1",
        "5"
      ],
      [
        "i",
        "d "
      ],
      [
        "s ",
        "in "
      ],
      [
        "'], 'answer_start': [1",
        "4"
      ],
      [
        "ol",
        "og"
      ],
      [
        "?:{'text': ['",
        "1"
      ],
      [
        "iv",
        "ers"
      ],
      [
        "em",
        "b"
      ],
      [
        "com",
        "m"
      ],
      [
        "M",
        "ar"
      ],
      [
        "un",
        "d"
      ],
      [
        "h",
        "ow "
      ],
      [
        "s",
        "'], 'answer_start': [2"
      ],
      [
        "ol",
        " "
      ],
      [
        "k",
        "n"
      ],
      [
        "on ",
        "the "
      ],
      [
        "in",
        "ter"
      ],
      [
        "ec",
        "on"
      ],
      [
        "i",
        "te"
      ],
      [
        "ch",
        "o"
      ],
      [
        "a",
        "us"
      ],
      [
        "c",
        "re"
      ],
      [
        "in",
        "d"
      ],
      [
        "What ",
        "are "
      ],
      [
        "a",
        "in "
      ],
      [
        "'], 'answer_start': [1",
        "6"
      ],
      [
        "peop",
        "le "
      ],
      [
        "ab",
        "le "
      ],
      [
        "does ",
        "the "
      ],
      [
        "d",
        "es"
      ],
      [
        "d",
        "ur"
      ],
      [
        "in",
        "e "
      ],
      [
        "i",
        "ted "
      ],
      [
        "or",
        "g"
      ],
      [
        "am",
        " "
      ],
      [
        "sy",
        "stem"
      ],
      [
        "u",
        "s "
      ],
      [
        "d",
        "ec"
      ],
      [
        "b",
        "et"
      ],
      [
        "U",
        "S"
      ],
      [
        "ar",
        "r"
      ],
      [
        "l",
        "arg"
      ],
      [
        "In what ",
        "year "
      ],
      [
        "d ",
        "of "
      ],
      [
        "en",
        "s"
      ],
      [
        "it",
        "y"
      ],
      [
        "B",
        "rit"
      ],
      [
        "ang",
        "u"
      ],
      [
        "o",
        "y"
      ],
      [
        "er",
        "al "
      ],
      [
        "i",
        "re"
      ],
      [
        "um",
        " "
      ],
      [
        "igh",
        "t "
      ],
      [
        "u",
        "p"
      ],
      [
        "A",
        " "
      ],
      [
        "s ",
        "are "
      ],
      [
        "C",
        "om"
      ],
      [
        "wh",
        "en "
      ],
      [
        "What ",
        "type of "
      ],
      [
        "'], 'answer_start': [1",
        "9"
      ],
      [
        "am",
        "e "
      ],
      [
        "ou",
        "s"
      ],
      [
        "'], 'answer_start': [1",
        "8"
      ],
      [
        "'], 'answer_start': [1",
        "7"
      ],
      [
        "is",
        "m"
      ],
      [
        "f",
        "oun"
      ],
      [
        "?:{'text': ['",
        "S"
      ],
      [
        "g",
        "overn"
      ],
      [
        "l",
        "angu"
      ],
      [
        "t",
        "or"
      ],
      [
        "es",
        "e "
      ],
      [
        "we",
        "en "
      ],
      [
        "ar",
        "d "
      ],
      [
        "af",
        "ter "
      ],
      [
        "i",
        "es"
      ],
      [
        "mu",
        "ch "
      ],
      [
        "de",
        "v"
      ],
      [
        "in",
        "v"
      ],
      [
        "s",
        "'], 'answer_start': [3"
      ],
      [
        "o",
        "h"
      ],
      [
        ",",
        "00"
      ],
      [
        "ad",
        "e "
      ],
      [
        "es",
        "s "
      ],
      [
        "A",
        "n"
      ],
      [
        "i",
        "st "
      ],
      [
        "p",
        "ubl"
      ],
      [
        "pr",
        "ov"
      ],
      [
        "ap",
        "p"
      ],
      [
        "k",
        "e "
      ],
      [
        "an",
        "n"
      ],
      [
        "a",
        "st "
      ],
      [
        "N",
        "or"
      ],
      [
        "m",
        "ore "
      ],
      [
        "per",
        "i"
      ],
      [
        "nam",
        "e of the "
      ],
      [
        "a",
        "w"
      ],
      [
        "pl",
        "ac"
      ],
      [
        "f",
        " "
      ],
      [
        "pr",
        "oduc"
      ],
      [
        "c",
        "ur"
      ],
      [
        "y ",
        "of "
      ],
      [
        "h",
        "ad "
      ],
      [
        "a",
        "ch"
      ],
      [
        "le",
        "g"
      ],
      [
        "bet",
        "ween "
      ],
      [
        "b",
        "el"
      ],
      [
        "f",
        "e"
      ],
      [
        "a",
        "di"
      ],
      [
        "tr",
        "ans"
      ],
      [
        "P",
        "ar"
      ],
      [
        "'], 'answer_start': [2",
        "1"
      ],
      [
        "con",
        "tr"
      ],
      [
        "Wh",
        "y "
      ],
      [
        "h",
        "el"
      ],
      [
        "us",
        "s"
      ],
      [
        "ing",
        "?:{'text': ['"
      ],
      [
        "ate",
        "s "
      ],
      [
        "te",
        "m"
      ],
      [
        "s",
        "'], 'answer_start': [4"
      ],
      [
        "es ",
        "of "
      ],
      [
        "'], 'answer_start': [2",
        "0"
      ],
      [
        "enc",
        "e "
      ],
      [
        "s",
        "erv"
      ],
      [
        "th ",
        "centur"
      ],
      [
        "e",
        "g"
      ],
      [
        "ic",
        "e "
      ],
      [
        "C",
        "on"
      ],
      [
        "a",
        "u"
      ],
      [
        "E",
        "ur"
      ],
      [
        "b",
        "as"
      ],
      [
        "re",
        "as"
      ],
      [
        "G",
        "er"
      ],
      [
        "us",
        "ed "
      ],
      [
        "be",
        "g"
      ],
      [
        "\"",
        " "
      ],
      [
        "ov",
        "er "
      ],
      [
        "th",
        "an "
      ],
      [
        "1",
        "7"
      ],
      [
        "s",
        ", "
      ],
      [
        "ation ",
        "of "
      ],
      [
        "19",
        "9"
      ],
      [
        "B",
        "r"
      ],
      [
        "is",
        "s"
      ],
      [
        "ac",
        "k"
      ],
      [
        "'], 'answer_start': [2",
        "2"
      ],
      [
        "sp",
        "ec"
      ],
      [
        "a",
        "ir"
      ],
      [
        "wer",
        " "
      ],
      [
        "bu",
        "il"
      ],
      [
        "er",
        "g"
      ],
      [
        "ation",
        "s "
      ],
      [
        "u",
        "e "
      ],
      [
        "on",
        "?:{'text': ['"
      ],
      [
        "'], 'answer_start': [2",
        "3"
      ],
      [
        "m",
        "ov"
      ],
      [
        "t",
        "re"
      ],
      [
        "id",
        "e"
      ],
      [
        "be",
        "en "
      ],
      [
        "st",
        "it"
      ],
      [
        "u",
        "str"
      ],
      [
        "wh",
        "o "
      ],
      [
        "En",
        "gl"
      ]
    ]
  }
}